/**
  ******************************************************************************
  * @file    network_data_params.c
  * @author  AST Embedded Analytics Research Platform
  * @date    Mon Mar 18 12:59:07 2024
  * @brief   AI Tool Automatic Code Generator for Embedded NN computing
  ******************************************************************************
  * Copyright (c) 2024 STMicroelectronics.
  * All rights reserved.
  *
  * This software is licensed under terms that can be found in the LICENSE file
  * in the root directory of this software component.
  * If no LICENSE file comes with this software, it is provided AS-IS.
  ******************************************************************************
  */

#include "network_data_params.h"


/**  Activations Section  ****************************************************/
ai_handle g_network_activations_table[1 + 2] = {
  AI_HANDLE_PTR(AI_MAGIC_MARKER),
  AI_HANDLE_PTR(NULL),
  AI_HANDLE_PTR(AI_MAGIC_MARKER),
};




/**  Weights Section  ********************************************************/
AI_ALIGNED(32)
const ai_u64 s_network_weights_array_u64[874] = {
  0x3d7cf7f93e09d191U, 0x3d33a4f4be4906adU, 0x3e0cce6f3d47a36cU, 0xbd95f2a6bddb1e9dU,
  0xbe307854bd344dc5U, 0x3c38087b3dec80feU, 0xbe29da3d3dc2fd61U, 0xbe0c320f3e145ab3U,
  0xbe1902303d3f2235U, 0x3d2313c2bcedc215U, 0x3e0473bc3c9f75f8U, 0xbd32245c3c585d6eU,
  0x3d104a3ebd42ab35U, 0x3e33cbc43cdba84bU, 0xbd80e10bbdbf227aU, 0x3da4e5f4be04fb92U,
  0xbd0f17e03dab2e6aU, 0x3d1dce613c90c111U, 0x3ce84d56bd71106aU, 0x3c69ddbc3da6f912U,
  0xbd9b99b33d8b22efU, 0x3ceba4003d01dbdcU, 0x3d040605bddf98d2U, 0x3e187f0d3df490f1U,
  0x3ddd8a77bce1f8a1U, 0xbdc977973d334387U, 0x3da962a43d9bec75U, 0x3e086d2a394acc96U,
  0xbdb5adf73e01e632U, 0x3d860b073de3f4ffU, 0x3de9431e3da388faU, 0x3d8b92843ce28432U,
  0xbd96b2e13d57362fU, 0x3e03d0d53d3e77eeU, 0xbd453ec1bd667a66U, 0x3e169b8d3e2154c9U,
  0x3dc1ad0abd7b2617U, 0x3d5e3ec7bb7a772fU, 0x3bf037783e19a05dU, 0x3d2d10efbd354ca4U,
  0xbda635743dd4dde3U, 0x3e1dcd4b3ddb3841U, 0x3de13ea43c224751U, 0x3c9cacbe3e1f166dU,
  0x3da11d723deedf4dU, 0x3e5400a8bd62ea4eU, 0x3dc2288bbd513890U, 0xbcee9cf43e0952cbU,
  0xbe15fb673e12a654U, 0x3bd52c543df62b3eU, 0x3d7c8208bdfd150fU, 0xbd9213553e2c956aU,
  0xbd4d99753c34155eU, 0x3c5b240cbdd79065U, 0xbe62353abd0e9413U, 0x3b9394413db40062U,
  0x3e1a5f54bd9bd36fU, 0xbd88d696bd0e4a93U, 0x3e223eeebca42c36U, 0xbdad7750be6659c3U,
  0xbe2c5bacbd07398aU, 0x3da80a1b3d486cc7U, 0x3c0a5a70be3ec43dU, 0xbcdc82ab3c7b901cU,
  0xbd52eec1bd81e6f7U, 0x3daaa567bdb85873U, 0xbe2e49913b173e07U, 0x3d229f7cbd5f9c81U,
  0xbc05716abe003e04U, 0xbe42da573d69447dU, 0xbcb3157c3d94b70eU, 0x3cedff2bbcfc9b26U,
  0xbd95baab3d0c2a18U, 0x3e1eaf103d97add3U, 0x3c225f97bdbd026dU, 0xbe216ce2bd715722U,
  0x3d77dcb0bd3aa365U, 0x3cd02922be37afdfU, 0xbd7d52ea3dde778bU, 0xbdba02a33e2e5865U,
  0x3d97c76fbe4c03ccU, 0xbd84efbb3db65944U, 0x3d2d60843c0a22f3U, 0x3d3bc583be4c8216U,
  0xbdca8a64bd001695U, 0xbaccfb2fbd56265cU, 0x3d96208abde68c74U, 0xbdbcd0df3cf60ae2U,
  0x3d002ec6bd6b59d6U, 0x3dbc0e47bdb29021U, 0xbe138481bbb71337U, 0xbdc72335bd29e11fU,
  0x3d6c53e9be8c4e59U, 0xbe3740eb3e0d27abU, 0xbdde71f73e1e3f45U, 0x3de69a35bdc72633U,
  0x3e2c7ceb3cef3f1fU, 0xbda86be43ca0a667U, 0xb94e28dc3e323c0fU, 0x3e777cbe3dc657dcU,
  0x3de0abfe3d89f10bU, 0xbd7744753d6abd6aU, 0x3dbfc8f43ce0b828U, 0xbca181b0bbd6c96bU,
  0x3de4472f3e2514bcU, 0x3e7b5edebe076be4U, 0x3d549435bd0e6bcaU, 0xbd8851ad3db974dcU,
  0x3d497f163d73bc5aU, 0xbcbd17eebbc14f13U, 0x3d246c273e66d25fU, 0x3e7053ea3dacdfa9U,
  0x3e11d8183de55404U, 0xbd800d943e00ad34U, 0x3db8f3d83db19214U, 0xbd868d1dbdd14c25U,
  0xbbb7b4d73e80fe91U, 0x3e12dda23d798173U, 0x3d8100af3e2b219bU, 0xbc093def3db1326bU,
  0xbd364d383d50a830U, 0x3b9759953b418478U, 0xbce9221ebccad9adU, 0xbe7a716b3c9a0b48U,
  0x3d521fbabc457946U, 0xbbe73ea1be849ecfU, 0xbe05389c3e1a8626U, 0x3e11fda83e38b188U,
  0x3d1988f4bd487955U, 0xbe0469723d214123U, 0x3e1600053dc4961bU, 0x3e0c8709bdec8828U,
  0xbe8200febdac09beU, 0x3d0f344dbcea4304U, 0x3d8aebe4be2f3845U, 0xbcf0675ebdf05c49U,
  0x3d3d21273db85d2bU, 0xbd799800bdb04897U, 0xbd4f387cbdd67b15U, 0x3d6c14bf3de7917eU,
  0x3ded3a44bdff6341U, 0xbe8063d7bbe514a6U, 0xbd5d68123d5311d5U, 0x3debf6bcbe0f8323U,
  0x3e0e0f06bd9c6e13U, 0x3d18fdde3da0b0daU, 0x3daa10513e3e052cU, 0x3e8486e3bcec2e34U,
  0x3d092a033af25e6aU, 0x3e3728373e91ca9eU, 0x3e8f58153e1ec110U, 0x3df3515f3cb8aea9U,
  0x3e1758073e1415d5U, 0x3e7e44a63e267e5aU, 0xbcf7bcb1bd2a38ddU, 0x3d7dca5a3e810a0eU,
  0x3e8f9cd23e3beecbU, 0xbdaf3db93e492958U, 0xbcb907dc3e3a9a0fU, 0x3e86e31b3db90e20U,
  0xbd5347b43e139745U, 0xbcb2949d3d9c2a36U, 0x3e63bb113e55968aU, 0xbbad172d3e4d2213U,
  0x3d6174ed3de1950eU, 0x3e687b733c6bbd15U, 0xbcb4ce56bcd596e5U, 0x3d4760d33d968c8eU,
  0x3c9270ab3dc54b48U, 0x3d7b31823e18d1e5U, 0xbcebda1fbc616e66U, 0x3c87f6873d0ddaadU,
  0xbc2bbb7cbd72a839U, 0xbd4d74dd3dcbb3caU, 0x3cf35ee8bd8c754bU, 0xbd9ad06b3d05273aU,
  0xbce9df20bc60a4e7U, 0xbc4edb1ebd5dc72fU, 0x3dbdc194bd3240adU, 0xbcbaa2bb3b0a8a47U,
  0x3d4948b53dbe51b4U, 0xbdbd96f43d26f842U, 0x3d20ffa93cda1016U, 0x3d2c8b00bbc35ac4U,
  0x3dafffcb3d751c11U, 0x3dfc9080bd73dd10U, 0x3d8a6fe2bb2c777dU, 0xbd474b013d01a73aU,
  0x3d0ba46a3cb1c50cU, 0x3c725b1ebd160576U, 0x38c45a653e46a52cU, 0x3df7c4223d793c7bU,
  0x3c46e8c6bdc0c43fU, 0xbdfe7e04bdd228edU, 0xbddd503b3c713c16U, 0x3d90ac48bdde70edU,
  0xbdb4ccc3bdb8b15aU, 0xbdb338433d0fa204U, 0x3c851816bdf0a269U, 0xbd5c7d54bd03963dU,
  0xbd5ea461bc78f3d9U, 0x3c6cf96cbd7adfa6U, 0xbcef40ffbd7acf1dU, 0xbd70b38abc2f5eb3U,
  0x3d23b9d03d0410fcU, 0x3db440bfbd5c60a8U, 0xbd22bb7b3cc931e8U, 0x3d4e4b5c3ce419faU,
  0x3e13173a3dafd6d5U, 0x3da0fdd8bd584f4eU, 0x3cd2f8943ddde4b8U, 0x3da52ae13cf98d2aU,
  0x3da4cd173d46d67dU, 0xbd671a223de4121eU, 0x3e3b4adf3e23cbf0U, 0x3d8e0ce1bd067f6bU,
  0x3ccc7ccc3e22469eU, 0xbce644f93d1f28cbU, 0x3daf0888bdaa71a5U, 0xbe518d033e229af4U,
  0x3e05a9473c458ba9U, 0x3d8261af3c9af042U, 0xbe2b8073bc870070U, 0x3e187f6e3dcf790aU,
  0xbc92f93b3c3b1b82U, 0xbd0608343e0e7b27U, 0xbd22eb263daf536bU, 0x3debdb77be203770U,
  0xbddaab5f3dc6cdb9U, 0x3e17cf1c3de8b4d6U, 0x3d2860c8be513ff3U, 0xbc16c61d3de83417U,
  0x3d5fc8103c2b3779U, 0x3df767753d98d74bU, 0xbda083043d1da3e1U, 0x3e00f0293d811dc8U,
  0x3b147fcb3d094b63U, 0xbd42739ebcbff9afU, 0xbd9ca7eebd9b6158U, 0x3d7e036d3daa32abU,
  0xbe5e9b2f3d5b9b66U, 0x3dee24573de3a5ecU, 0x3e723090be8612b8U, 0xbe2749003e01bedfU,
  0x3d93157c3c84416eU, 0x3d3ee6febe28dbc7U, 0xbdf83a35bdc9c754U, 0xbdee5592bd4ac3a8U,
  0x3e11a429be6d2708U, 0xbdf2e5a3bc8a8709U, 0xbd9563843bd64b2aU, 0x3de797a2bda62d97U,
  0xbdf67cd3bd9ddd63U, 0xbd69b055bccdfa4fU, 0x3daa20b7be4d6a5eU, 0xbe9b54d7bd127b15U,
  0xbcad08353ddfdb01U, 0xbc7e0d04be4962c4U, 0xbe329f363da5bda1U, 0x3c2fa3373d7e5789U,
  0x3dc2b9c1be437d26U, 0xbdad93c9bd784454U, 0x3d3a57cbbcd542efU, 0x3d93b300be476a42U,
  0x3d761f393dc6dda3U, 0x3bdea3debd559796U, 0xbd0b648a3e54ccc4U, 0x3e0c98a63dfb090bU,
  0x3ddaf1fd3d5a44f0U, 0xbde4f4783e907543U, 0x3e273abe3da49091U, 0x3e11f8ff3d5483c9U,
  0xbd9eb9293e20933fU, 0x3e5efbb63c7d2a05U, 0x3cc99438bc23e0e8U, 0xbd88bff93e4ee271U,
  0x3e8a28d93ccac18dU, 0x3e10de38bd7efe93U, 0xbc530f613db512ddU, 0x3de611c13dc740b6U,
  0x3d9b6c69bd876962U, 0x3d8fc7e73e493f15U, 0x3e70df3bbc5627c4U, 0x3d46a7b5bd141b9dU,
  0x3e3cf2f73e5f843bU, 0x3dcae8b2bbe36b50U, 0xbcde80a63d72a56dU, 0x3cb677683e16d73cU,
  0xbe6eda353dd2cc82U, 0x3e0c49073de75b3aU, 0x3d40fceabe52e8b5U, 0xbe97df69bc9df89aU,
  0xbd382fb13e3cd7fcU, 0x3d1eaaf5be5ad6ecU, 0xbde60166bca88bfcU, 0x3bed90673e261ebeU,
  0x3affcd4cbe61e5b0U, 0xbe1790cebe09f91eU, 0xbd042a183dd92305U, 0x3daf3da7be7fd1c3U,
  0xbe3cac413d73715bU, 0xbad8903e3d724942U, 0x3dd500f9be456bf5U, 0xbe890d19bd8e3bd0U,
  0x3c408dd03d1f80caU, 0xbd4a21bdbe33ee83U, 0xbe6aaccdbdfa06faU, 0x3dc0a98d3d5f99daU,
  0xbd99a86dbe576bb3U, 0xbe3563183bccef6dU, 0x3da77f8a3d9efb3aU, 0x3dfe2d8abe3f4308U,
  0xbdd3a98e3c93a8e0U, 0xba1d8b2dbd7c5f57U, 0x3e297e6dbd717347U, 0xbe28e84fbd5228a6U,
  0x3dc5eae1bd4ee6e0U, 0x3e44a617bde17f20U, 0xbda14fa93e2fe023U, 0xbca5feed3d96808bU,
  0xbd32a26dbdc7c93aU, 0xbd1cf22e3ddeabb1U, 0x3e10cca13dcb4b4fU, 0xbd0f6152be0a6250U,
  0xbe338775be078366U, 0xbd601ce93bfde07cU, 0xbb284c33bdf2bf7cU, 0xbd22a2353da884b6U,
  0x3ce76be83e07090bU, 0x3b3decaebe4be916U, 0xbd826fa03e0f4e48U, 0x3d1994473d18703dU,
  0xbd61f1a9be14d303U, 0xbe08c8e83d8bd339U, 0x3e1396543d717c79U, 0xbbd30ba8bd48ebb0U,
  0xbe671feebe2debadU, 0x3b5aaafd3db7f448U, 0xbd068e20be428ce5U, 0xbe945105be0f2eb3U,
  0xbdd3d4f13dc2b6cbU, 0x3ddaa6ddbdae618aU, 0xbe5c707f3d8caf63U, 0x3c957c753da5e97fU,
  0x3c87c228bce84e04U, 0xbe822519bdfc6d07U, 0x3d9bf89a3e04ef54U, 0x3ddcb4a3be200c42U,
  0xbea5e07e3da097f5U, 0xbc681f223d997b46U, 0xbd39669cbd9c5a85U, 0xbe5055adbd588f74U,
  0xbd7547983e00f007U, 0x3d9c5242be3f2f96U, 0xbe1744703db21efeU, 0xbdc574773df39e31U,
  0x3c3a8c73be32570aU, 0xbdf708f53c33dffdU, 0xbd2808dd3e2b03f6U, 0xbd53170fbe0e8af6U,
  0x3def5447bc52d47bU, 0x3d7efd24be0e9acdU, 0xbce4a1733e9fd629U, 0x3e7cac86bbdb6cd0U,
  0x3d3af4bdbcea40b8U, 0x3b8b9e8a3e5b535fU, 0x3ea21afc3cbb6c66U, 0xbc3279ef3d59c548U,
  0xbca609153e8e6757U, 0x3e809bd23ceb06eeU, 0x3d80a643bd776060U, 0xbe1478c93eb3a609U,
  0x3e0f93abbd5bcfbdU, 0x3deaea33be374d00U, 0xbcb3c1053e57b286U, 0x3e3bbc6bbc9972baU,
  0xbd74646c3c90dcaeU, 0xbca83ab13e9a0f08U, 0x3eaeba9ebd3863c0U, 0x3c730b0e3c97249fU,
  0xbe33baaf3e140d97U, 0x3ec565f83dd4c174U, 0xbdc2c52a3d4a1790U, 0x3ccdc8a63e3a5dd5U,
  0x3e323e903c44f6c8U, 0x3c92a964bccfd47aU, 0xbcadfda23e1d9a05U, 0x3e6b7df2bd9f9ceaU,
  0xbd8b34af3c2dadd7U, 0x3dabf6483e08fea0U, 0x3e569d63bd259b2eU, 0x3d32f688bddd4a8cU,
  0x3db022e23e155322U, 0x3d6c73213e18e93aU, 0x3c8f81d73bd46da2U, 0x3e25c8903dd0c1efU,
  0x3dec451b3c9823adU, 0x3da167cb3d787776U, 0xbd1536c53e6c4532U, 0x3dea32383cbcf2ddU,
  0x3d1f5f7b3cc80f72U, 0x3b5542be3d2e7f44U, 0x3d7afd483c30adacU, 0x3da8c813bda6bb29U,
  0x3ca3198b3e1a1a68U, 0x3dc9dc7dbb68e7edU, 0x3df7560f3c4c06b1U, 0x3e3962373d384eeeU,
  0xbe0491e03e0faf34U, 0x3db8a442bd855db9U, 0x3e16290ebe1af37bU, 0xbe1749723e1a3587U,
  0xbd8767033d613cdbU, 0x3e1e2b6cbe33b031U, 0xbd2021383d608ad5U, 0x3d3b9964bccbd29cU,
  0x3d965aacbd09bd54U, 0xbd18fa0ebd4a0088U, 0x3e17212cbd3024c0U, 0x3becae8abcc7bde5U,
  0xbe20955e3dc83364U, 0xbdc4db633da02075U, 0x3d4a2455be64bf16U, 0xbe7a890fbdcc5cb0U,
  0xbc81d0c13df8245fU, 0xbd1d98bebba12fb7U, 0xbc9c6bb6bdd128a6U, 0xbcc6769fbd7e8349U,
  0x3dc4ec4fbc47cddaU, 0xbe43c5433e199190U, 0x3db564983d947011U, 0x3b030346be23a0c2U,
  0x3e5b433fbbacc3f0U, 0x3d176a11bd065f3aU, 0x3c8beea13e1fce95U, 0x3e61f36c3dd60e99U,
  0x3de563d5bde5741eU, 0x3d01bbdc3de32260U, 0x3dbaaf2abd8e234cU, 0xbd98e2dc3d7a473fU,
  0x3e1cc58a3e1341a3U, 0x3d9f2ad8bccb68f1U, 0x3be8054d3dd7e2d3U, 0xbd3650523e8cea5aU,
  0x3e0114503db15b29U, 0xbdfdd64cbd844e30U, 0x3dc98c333e254b66U, 0x3e7f953abdb23418U,
  0x3ce589aabcabd5ccU, 0xbd9552a63e06aea6U, 0x3d56105e3dd6cdc9U, 0x3e0a89a43c8320b1U,
  0xbcf646423e83af65U, 0x3e25e4883d597957U, 0x3dcef20d3e36fd86U, 0x3bc2bce63da1480eU,
  0xbd1b644fbcf7e9f8U, 0x3dd286b0bd2f33c8U, 0x3cc26d93bdefa83bU, 0xbe5c3153bd98990fU,
  0xbdc755733d0bc4d8U, 0x3e5eaa99be5d66e3U, 0xbd0bca933c86f5b1U, 0x3b677419bd19d385U,
  0x3e03f8cbbe2b6fcaU, 0xbdf249f23dbc1b7dU, 0x3e07b6fc3dab7d46U, 0x3cc63692bdc9d7ebU,
  0xbdfcdea6bda36f07U, 0xbd40b9d93e0c15bbU, 0xbd14368dbdafdac2U, 0xbe0036afbd46b675U,
  0x3e263c283e36e28bU, 0xbd560053bddb1c32U, 0xbde42d383ca013bcU, 0xbdda6fc73e0696caU,
  0x3e3a517cbe8a637eU, 0xbe1cd1953c302069U, 0xbc374ee33e4d11ffU, 0xbcb238e3bdb1aa6aU,
  0xbdc55b053dc97697U, 0x3da0e1933d86f4a9U, 0x3dd29132bdb5cac3U, 0xbe5ce57f3d6e95b2U,
  0x3d81a6873d58c29cU, 0x3d0319b1be2ff3fdU, 0xbe14fb27bd815463U, 0x3d2223d33cac2a74U,
  0xbd23122abdcdb3dfU, 0xbe8c4ac23d3eb1a2U, 0xbd2dda0f3dc39629U, 0x3e137b82be1fd6ebU,
  0xbe921dc33db402e0U, 0x3e44dc353e3e1619U, 0xbc33c44abe4ce225U, 0xbe0c8fca3cc692a4U,
  0x3d83e0ca3e0d34ceU, 0xbd330a12bdaddbf4U, 0xbe6663ffbd9735bdU, 0xbc469920bd9ba1ecU,
  0x3c110e7cbe6c0cd4U, 0xbe7a9cc73cba14b8U, 0x3e03356d3e2fb42cU, 0x3e1d1957be5a56bcU,
  0x3dd24c813e225addU, 0x3cccfcaa3a9ed59dU, 0xbe387a993e7062eaU, 0x3e15a6c9bd01ef4aU,
  0xbd9f33003cecac68U, 0xbdea9efc3e0e6844U, 0x3e8f47e13cd6c3f8U, 0x3d47ffd63d171da9U,
  0xbdd5af533e31c055U, 0x3e135d773db9dd87U, 0x3d8e0f543d6967e8U, 0x3de221fc3e2b5116U,
  0x3eb2279abc3a7f46U, 0xbd7c7c1a3d8c802dU, 0xbd6a54ef3e7ca9f1U, 0x3e2471b63d8b0972U,
  0x3c96ff89bda4f1f3U, 0xbdbb80073e4612b5U, 0x3e24cf033dba3e2aU, 0x3cac0b983d024657U,
  0xbb9f03a53e5e6e69U, 0x3dff3d023d789edfU, 0x3e0d2edc3c98a520U, 0x3c1b7f373e51f5d5U,
  0xbd5048913e12baa3U, 0x3e1db3c1bd865fa7U, 0xbcda5ce9be4d9bc1U, 0xbd8a8a0cbdc47c8eU,
  0xbc90a9673e042b51U, 0xbd66e08ebd5950faU, 0xbe6819fc3ccb8922U, 0xbdc0cb1e3da33fb4U,
  0x3dde1babbe437df6U, 0xbe57bd583e1bf465U, 0x3d9128bc3d8a779eU, 0xba4a5d95be4ff578U,
  0xbe379a2f3df128e3U, 0xbdd153523de4b07cU, 0x3d810993bdb6a927U, 0xbd3424643c288d50U,
  0xbe10a7adbda9b779U, 0xbdc7328abe6fbb22U, 0xbd80cafb3d84e262U, 0x3d4da6c73d8d5c53U,
  0x3c4fbbf03b1aa43bU, 0xbe2da609bb068e23U, 0x3decfff9bc46c5bbU, 0x3c3cf3abbe198008U,
  0xbdcaf6ab3e053c3dU, 0x3e172ad43e2e7e31U, 0xbd1e903bbe20e30aU, 0xbc54144ebd86d258U,
  0xbd24c2213d63c9f0U, 0x3cdd577dbd51d82eU, 0xbe33f9e3bdb1f299U, 0x3caba2a83e1b4d39U,
  0x3e117d95be578e0aU, 0xbe0cd8e53e129574U, 0x3e03ee47bab44b7fU, 0x3d57d079be0af228U,
  0xbdfd19fb3d95dec5U, 0xbd895c1e3cf12f94U, 0x39a12f02bd0ff5a2U, 0xbe3c405abdf42b54U,
  0xbdefd65d3e08751fU, 0x3dda6428bc044934U, 0xbc2a3b3b3d807ee3U, 0x3ce696ce3cf09795U,
  0xbd1ac5aabe3d2185U, 0xbde5571e3c0bf95eU, 0xba07a5ffbd29b216U, 0x3c425ecfbccfcca8U,
  0xbe357822bc84f609U, 0x3d6265333dbfa530U, 0x3dbf472abe21d4a6U, 0xbe0d0a623d2c4266U,
  0x3eb6ccf33dd20460U, 0xbd04adcb3df10468U, 0x3d250f403dbaf280U, 0x3e38f73d3e0b4650U,
  0x3e9175e0be4a8e09U, 0xbd40f882be1b48d2U, 0x3d19c8c43b34838aU, 0x3e3acf9e3e6dae90U,
  0x3e13d1843e9d00bdU, 0x3d1af170bd8e9f14U, 0xbe103d953e5d30d7U, 0x3db6b17c3e0276bcU,
  0xbae5d520bd2c0c1cU, 0x3e22016abea3db9dU, 0xbdb15db5bec53c13U, 0x3f1a40b5bec28477U,
  0xbd1a80b93e1de6bdU, 0xbe9143533e4f07f6U, 0x3e3c3aaabe648374U, 0xbd9c93573d0cebeeU,
  0x3e29050e3eba60eaU, 0x3cd59fc2bc7dd71bU, 0x3e3e35503db25b9fU, 0x3e37ab6f3e0fb44dU,
  0x3d81cdd7bf1ae897U, 0x3e07873b3c11523fU, 0x3d97f18bbaa0d22cU, 0x3e8b8ecbbbfc7108U,
  0xbd19eec33e3b9338U, 0xbd3a2ab13e83058eU, 0xbdf04ff93d394f0cU, 0xbd913e77be39dc02U,
  0x3ab724393e9d6c32U, 0x3d3fc1b23d10eb30U, 0x3d123956bc952821U, 0x3d0cb389bc0b7179U,
  0x3c801696bf0c2b07U, 0xbd3ed81d3d6e2ff2U, 0x3cb8199d3d59ba6fU, 0xbda462bf3dd1d10eU,
  0x3cccb2fa3a94ed17U, 0x3d6fa4aebc81b08aU, 0xbd75b2e53d25ee4dU, 0x3d40bce33d04ebdeU,
  0x3e84d2d43f0a6929U, 0x3d94aff2be22921eU, 0xbda0fce43e9822f5U, 0x3d4667013e5b445cU,
  0xbe05cb02bf2c10b7U, 0x3e8f818abda1b4f9U, 0x3e354511bdd5200aU, 0x3eb7a3e1be018975U,
  0xbe4af3563e865432U, 0x3e21359f3e91fc8eU, 0x3e7585153dd9e7d1U, 0x3e2940bbbe219455U,
  0x3b7b32f23f000015U, 0xbc80b15bbda54ff5U, 0xbd8cfd803d9ce25cU, 0x3e06588f3e715680U,
  0x3c6a2567bf220fd3U, 0x3ea5d4803daa213aU, 0xbdeaa071bc369a45U, 0x3e73e6953c8ce21dU,
  0x3d01b0f53e835cffU, 0xbd9176923e98e9a0U, 0x3d4f84d4bdb78e79U, 0xbdbf6745bcefb797U,
  0x3bad3d86be6d5adeU, 0x3e493c303e141ca0U, 0x3e739688be7370feU, 0xbdc2689f3e32609fU,
  0x3db7a9d33f1df67dU, 0xbe540eff3e2607f4U, 0x3e3a128b3dc8ddf9U, 0xbe20066bbe203568U,
  0x3e2a35acbe80eaa9U, 0x3ca37209be4619ccU, 0xbe1f00c13e31b20eU, 0x3e66bde83e24cb20U,
  0x3e01312f3e822052U, 0xbe823467bd8c14feU, 0x3d2f71153e8705f1U, 0x3c9ed76f3d3f340fU,
  0x3ceec57fbd923e7eU, 0x3c83f58dbd98bf08U, 0xbd79d643be978e02U, 0x3f095a0fbeb936c1U,
  0xbe7e25fbbc93c9dcU, 0xbdc5db573ea532bfU, 0x3ed1bbe1be61e759U, 0xbd5e498dbe6ce810U,
  0x3b7733693e034c7dU, 0xbe15d98bbe92f475U, 0xbe79dcce3e4ef680U, 0x3d2297e13e51fd1aU,
  0x3d5da068bcae0fd5U, 0x3e3143bcbe7f8f6bU, 0xbdad220dbeb50f94U, 0x3ee87cf6bec7291aU,
  0x3dbca6243d02a6bfU, 0xbe44e61e3dd32336U, 0x3ee8f644be565d23U, 0x3b179be0be12ad25U,
  0x39bfb08ebab0b5ecU, 0xb82d666c39b35f28U, 0x3a6a7290ba8a76e4U, 0x3a49ccb1ba257c04U,
  0x3958af13bb7dac7cU, 0x39d75d5ab70aaa2bU, 0xb9b619fd38b00f55U, 0x397e3dee3996946aU,
  0xb9fa5867ba38f5daU, 0xb89c437cba2b34e0U, 0xb7a6c0c537c8c757U, 0x39234156b9d44857U,
  0xbe0b670ebe8c41f2U, 0x3e5f0e783e4fa429U, 0x3e56b19abc8a64adU, 0xbd92c43e3dad7399U,
  0x3db915303f13e5b3U, 0x3d578e303e240ce9U, 0x3db328c23e0927cfU, 0xbe84dc2cbe2f2de3U,
  0x3e34e5c1be5c9a04U, 0x3d8da8dbbd2f6c4bU, 0xbd40fd2a3e5afefaU, 0x3d085ac23e40e871U,
  0xbe158613be97dc1fU, 0x3d54ca4b3d442422U, 0x3e6f2537be2dce46U, 0xbd2911febc5f90f9U,
  0x3e7c16833f360457U, 0xbb8a8bcc3e79a882U, 0x3e4c2859bd486164U, 0xbe81e0fa3d1f661cU,
  0x3e529dc6be136ed8U, 0xbd7b01393a578324U, 0xbe0a6ea3bd2b07ecU, 0xbd3ea4a13e7384beU,
  0x3d14c9f7bec1b930U, 0xbd8182ec3e6e03d6U, 0x3e45a0b2be376d42U, 0xbde109703daac924U,
  0x3e6763853f07801dU, 0xbc7f24ffbe04d2e9U, 0xbc98e8793e26c6faU, 0xbea4d892bd0f5b6aU,
  0xbdb0577bbc387c6dU, 0x3e0e8248bdf9f37fU, 0xbe2e51e33e75c110U, 0x3e2df5f73e2fce78U,
  0xbe1f466e3ed86df2U, 0xbd727ee8bdb19a16U, 0x3ea32d59bd78baf8U, 0x3ed0b9fb3ed148c0U,
  0x3e08d0bebad86c83U, 0x3e84bc203e754ef5U, 0x3ec0d6ce3f45b117U, 0x3ec493df3e4612eaU,
  0xbea9dc133c88c163U, 0x3f86ba5a3f57650bU, 0xbe715c50394f3655U, 0xbea66e19be869344U,
  0xbe0c120bbf5af6bcU, 0xbe93225fbe46177eU, 0x3deca3dabee19ae0U, 0xbf61503fbf2768ceU,
  0xbd25ccd2b94f3739U, 0x3e176ba33ea5b649U, 0xbd57defabe3ec158U, 0x401d43a840551703U,
  0xbf5a639a3f40d6e7U, 0xc03822f0bff9453bU, 0xc0172af6c02a83ccU, 0xbee3118fbfaef039U,
  0x400287023f4d71c0U, 0x405c19a9403ed694U, 0x3f8d4496403712aeU, 0xbfcb3df5bf1ef574U,
  0xbfcae781bfeff7f6U, 0xbe514786bfcaaa29U, 0x3f90db55be7aab76U, 0x3fcc468d3faa9be6U,
  0xbd8520ed3f9d362eU, 0xbfd13823bf339f8eU, 0xbed58505bf852d7dU, 0xbf430a533fdc72daU,
  0xbfad97d43f74de0fU, 0x3eada7b63f8d2769U, 0xc00782cd408a29f5U, 0x40604dc2bf003ce8U,
  0xbe870cccbd7a2d07U, 0xbf43195f3f2e27d4U, 0x3ccdbcf0406aafffU, 0x3e3d469ebf5a7accU,
  0xbf2cc8d23ed7db0dU, 0x3f83de58bf83d21fU, 0x3fae1c53c0554bfdU, 0xc0086f383f8a0812U,
  0xbf597844bed88117U, 0x3fb280d5c004bdd3U, 0xbfb10e3ec033ade1U, 0xbf78b785bf133593U,
  0xbfb08f92bf7d4d9cU, 0x3fdac9973ea142a2U, 0x3ff3f98140107815U, 0x3ebebb8d3f9485b8U,
  0x3e62e4523eb7fce0U, 0xbf815300bebb725aU, 0xc0450fd7c02c183aU, 0x3d518be7bffc663eU,
  0x403b47db3ff064e5U, 0x400a5e884045d46fU, 0x3e8ab73d3fa1cd57U, 0xbfb1b811bf07201bU,
  0xc03dd4cec02918a8U, 0xbf482bf7c023bb82U, 0x400704923f8fbdddU, 0xbd8cf0ecbd692db6U,
  0x3e3e8a7bbd57e072U, 0x3df8a926bdba029cU, 0xbe0e6bcf3dac1ea6U, 0xbc80be90bcd0a302U,
  0x3df0cc4fbd5d2fe6U, 0x3d5d053b3d9775fdU, 0x3e14763f3e751cb2U, 0x3dce1e203dd1a8cfU,
  0xbd3e9f473ca40f0aU, 0x3d8aa3e7bb6af726U, 0xbce25218bd98495cU, 0xbd19fb993dba98c9U,
  0x3ddfe8d23ccc60d6U, 0x3e1f3f9d3cb4b163U, 0xbcd69cf83e1be2fbU, 0xbbd14a923e438c52U,
  0x3c474d7ebd81444eU, 0xbc5dc97fbd649ef9U, 0x3e2632363d86f4e5U, 0x3e145bc9bb8fd8feU,
  0x3db56d813e683b61U, 0x3e163ba73e0669f0U, 0x3d0c7fcdbdd663a2U, 0x3c8435b6bbaf4137U,
  0xbdd4b2abbbb09884U, 0xbe35a2c53dee3deaU, 0x3deac23bbe1f8f38U, 0xbd9943e4be2585cdU,
  0xbd7744483dad1b9bU, 0x3e4407013c942b06U, 0x3d9cef083d79228aU, 0x3e31c4763e02512bU,
  0x3da76c403e3198e6U, 0x3e369e123e2fb56aU, 0x3dfcf0d53db84310U, 0x3e08f0b63e1e0bb7U,
  0x3daaa7013dac8364U, 0xbca0f64a3e096646U, 0x3c749bcf3ceab5c9U, 0xbe3ce5c9be10b76bU,
  0xbe47fc663d376dbcU, 0xbcb3d58fbe880435U, 0xbe809244be5b95e1U, 0xbe0cfc2c3d921bfeU,
  0xbc8aa50dbdd73735U, 0xbdffaa45be27ec0cU, 0xbe087d40bd4721ddU, 0x3d5f5177bdc2898dU,
  0x3d67851abd833b9bU, 0x3c0d964ebc09c538U, 0xbd1aeebb3e289f1aU, 0x3d7a655c3dbe11c1U,
  0x3d657766be496fb3U, 0xbdd3c5153e162cd6U, 0xbc56a73a3e584246U, 0x3e1b4ba1bd644bb5U,
  0xbe0a942e3e1708a2U, 0x3e0f37663e44382fU, 0xbc239ad5bdd6a8d7U, 0xbd595e243c03ee1eU,
  0x3e007777bd6090e3U, 0x3e05d790bde82be7U, 0xbe052e963e113cbbU, 0x3d6bf2453db3daebU,
  0x3e10d30abe28f0f1U, 0xbb252af33db68b4eU, 0xbcb2f75c3dca5f0fU, 0x3d4673a0bd492c22U,
  0xbe6ce0123d258022U, 0x3e13331fbd0b637eU, 0x3d9535fabe208d02U, 0xbd8ecbc53d9fc0c3U,
  0xbce651113d6425a1U, 0x3ddede303dbbe9c1U,
};


ai_handle g_network_weights_table[1 + 2] = {
  AI_HANDLE_PTR(AI_MAGIC_MARKER),
  AI_HANDLE_PTR(s_network_weights_array_u64),
  AI_HANDLE_PTR(AI_MAGIC_MARKER),
};

